TRT-100700-MinMaxCalibration
images: 3c010204
/model.0/conv/Conv_output_0: 3f0ad765
/model.0/act/Sigmoid_output_0: 3c010204
/model.0/act/Mul_output_0: 3f060504
/model.1/conv/Conv_output_0: 3f6ea394
/model.1/act/Sigmoid_output_0: 3c010204
/model.1/act/Mul_output_0: 3f6325f9
/model.2/cv1/conv/Conv_output_0: 3f716d0d
/model.2/cv1/act/Sigmoid_output_0: 3c010204
/model.2/cv1/act/Mul_output_0: 3eecbd65
/model.23/Transpose_1_output_0: 3e810204
/model.23/Constant_33_output_0_output: 0
/model.23/Reshape_3_output_0: 3f204081
/model.23/Add_3_output_0: 3e9f3e7d
/model.23/Add_10_output_0: 3f21f590
ONNXTRT_Broadcast_293_output: 3b810204
/model.2/Split_output_0: 3ed6286d
(Unnamed Layer* 745) [Constant]_output: 0
/model.23/Slice_output_0: 3dbaf6ad
ONNXTRT_ShapeShuffle_181_output: 3c010204
/model.2/Split_output_1: 3eecbd65
/model.2/m.0/cv1/conv/Conv_output_0: 3daf4f41
/model.2/m.0/cv1/act/Sigmoid_output_0: 3bf3fa61
/model.2/m.0/cv1/act/Mul_output_0: 3cae292b
/model.2/m.0/cv2/conv/Conv_output_0: 3e7e3c64
/model.2/m.0/cv2/act/Sigmoid_output_0: 3c010204
/model.2/m.0/cv2/act/Mul_output_0: 3e3fb401
/model.2/m.0/Add_output_0: 3f05825d
/model.2/Concat_output_0: 3f05825d
/model.2/cv2/conv/Conv_output_0: 3eb2aef6
/model.2/cv2/act/Sigmoid_output_0: 3c010204
/model.2/cv2/act/Mul_output_0: 3e0e1e3e
/model.3/conv/Conv_output_0: 3df0c097
/model.3/act/Sigmoid_output_0: 3c0101ed
/model.3/act/Mul_output_0: 3dce327f
/model.4/cv1/conv/Conv_output_0: 3dde82a6
/model.4/cv1/act/Sigmoid_output_0: 3bfdb099
/model.4/cv1/act/Mul_output_0: 3d011d39
/model.23/Unsqueeze_3_output_0: 3f204081
/model.23/Reshape_11_output_0: 3e9f3e7d
ONNXTRT_ShapeShuffle_230_output: 3c010204
/model.23/Range_3_output_0: 3e9d3a75
/model.23/Constant_47_output_0_output: 3c010204
/model.23/Constant_30_output_0_output: 0
/model.4/Split_output_0: 3d011d39
/model.23/Add_5_output_0: 3e010204
/model.23/Sub_output_0: 3f1fdc9c
/model.23/Unsqueeze_10_output_0: 3e1d3a75
/model.4/Split_output_1: 3cf95f3c
/model.4/m.0/cv1/conv/Conv_output_0: 3cfd0f08
/model.4/m.0/cv1/act/Sigmoid_output_0: 3bfcb41c
/model.4/m.0/cv1/act/Mul_output_0: 3cf3fff3
/model.4/m.0/cv2/conv/Conv_output_0: 3d7c63f8
/model.4/m.0/cv2/act/Sigmoid_output_0: 3c00c20d
/model.4/m.0/cv2/act/Mul_output_0: 3d490491
/model.4/m.0/Add_output_0: 3d5966f0
/model.4/Concat_output_0: 3d5966f0
/model.4/cv2/conv/Conv_output_0: 3d7699a6
/model.4/cv2/act/Sigmoid_output_0: 3bfe9e89
/model.4/cv2/act/Mul_output_0: 3d0966f3
/model.5/conv/Conv_output_0: 3d6ee1f9
/model.5/act/Sigmoid_output_0: 3c004e3e
/model.5/act/Mul_output_0: 3d270c87
/model.6/cv1/conv/Conv_output_0: 3d9b2514
/model.6/cv1/act/Sigmoid_output_0: 3c00740f
/model.6/cv1/act/Mul_output_0: 3d2edc74
/model.23/Constant_49_output_0_output: 0
/model.23/dfl/Reshape_output_0: 3e190211
/model.23/Div_1_output_0: 3f208ba9
/model.23/Constant_50_output_0_output: 3c010204
/model.23/cv3.2/cv3.2.0/cv3.2.0.1/conv/Conv_output_0: 3e09445f
/model.23/cv3.2/cv3.2.0/cv3.2.0.0/act/Mul_output_0: 3db82908
/model.6/Split_output_0: 3d2edc74
/model.23/Reshape_10_output_0: 3e9f3e7d
/model.23/dfl/Transpose_output_0: 3e190211
/model.23/cv3.2/cv3.2.0/cv3.2.0.1/act/Mul_output_0: 3d664a5f
/model.6/Split_output_1: 3d1ae285
/model.6/m.0/cv1/conv/Conv_output_0: 3d12c28d
/model.6/m.0/cv1/act/Sigmoid_output_0: 3bf8c255
/model.6/m.0/cv1/act/Mul_output_0: 3cccada8
/model.6/m.0/m/m.0/cv1/conv/Conv_output_0: 3d324c4b
/model.6/m.0/m/m.0/cv1/act/Sigmoid_output_0: 3bfda600
/model.6/m.0/m/m.0/cv1/act/Mul_output_0: 3d00c936
/model.6/m.0/m/m.0/cv2/conv/Conv_output_0: 3d1d537c
/model.6/m.0/m/m.0/cv2/act/Sigmoid_output_0: 3c000886
/model.6/m.0/m/m.0/cv2/act/Mul_output_0: 3d1c233a
/model.6/m.0/m/m.0/Add_output_0: 3d5389be
/model.6/m.0/m/m.1/cv1/conv/Conv_output_0: 3d354a59
/model.6/m.0/m/m.1/cv1/act/Sigmoid_output_0: 3bfbda14
/model.6/m.0/m/m.1/cv1/act/Mul_output_0: 3ce998ee
/model.6/m.0/m/m.1/cv2/conv/Conv_output_0: 3d6d0953
/model.6/m.0/m/m.1/cv2/act/Sigmoid_output_0: 3c00eccc
/model.6/m.0/m/m.1/cv2/act/Mul_output_0: 3d6ce256
/model.6/m.0/m/m.1/Add_output_0: 3d91fd81
/model.6/m.0/cv2/conv/Conv_output_0: 3d99b5ba
/model.6/m.0/cv2/act/Sigmoid_output_0: 3c00ffa0
/model.6/m.0/cv2/act/Mul_output_0: 3d99b2e2
/model.6/m.0/Concat_output_0: 3d99b2e2
/model.6/m.0/cv3/conv/Conv_output_0: 3d816e1e
/model.6/m.0/cv3/act/Sigmoid_output_0: 3c00f73e
/model.6/m.0/cv3/act/Mul_output_0: 3d816350
/model.6/Concat_output_0: 3d816350
/model.6/cv2/conv/Conv_output_0: 3d45f73a
/model.6/cv2/act/Sigmoid_output_0: 3c00b6ad
/model.6/cv2/act/Mul_output_0: 3d43ac15
/model.7/conv/Conv_output_0: 3d5ff35b
/model.7/act/Sigmoid_output_0: 3bff3647
/model.7/act/Mul_output_0: 3d0fe962
/model.8/cv1/conv/Conv_output_0: 3d876b82
/model.8/cv1/act/Sigmoid_output_0: 3c00f8a7
/model.8/cv1/act/Mul_output_0: 3d83bb10
/model.23/Unsqueeze_7_output_0: 3e9f3e7d
/model.23/Expand_5_output_0: 3e1d3a75
ONNXTRT_ShapeShuffle_303_output: 3c010204
/model.23/Constant_35_output_0_output: 3b810204
ONNXTRT_Broadcast_220_output: 3d810204
/model.23/Reshape_6_output_0: 3f204081
/model.8/Split_output_0: 3d83bb10
/model.23/Add_7_output_0: 3e1d3a75
/model.23/Reshape_9_output_0: 3e9f3e7d
/model.23/Concat_20_output_0: 3e1d3a75
/model.8/Split_output_1: 3d3a11ea
/model.8/m.0/cv1/conv/Conv_output_0: 3daa0949
/model.8/m.0/cv1/act/Sigmoid_output_0: 3bf85acc
/model.8/m.0/cv1/act/Mul_output_0: 3cc996ec
/model.8/m.0/m/m.0/cv1/conv/Conv_output_0: 3d8b2fef
/model.8/m.0/m/m.0/cv1/act/Sigmoid_output_0: 3c009202
/model.8/m.0/m/m.0/cv1/act/Mul_output_0: 3d36aa61
/model.8/m.0/m/m.0/cv2/conv/Conv_output_0: 3d917d10
/model.8/m.0/m/m.0/cv2/act/Sigmoid_output_0: 3c00dc5e
/model.8/m.0/m/m.0/cv2/act/Mul_output_0: 3d5a4773
/model.8/m.0/m/m.0/Add_output_0: 3d54a446
/model.8/m.0/m/m.1/cv1/conv/Conv_output_0: 3d898aab
/model.8/m.0/m/m.1/cv1/act/Sigmoid_output_0: 3c00f8a0
/model.8/m.0/m/m.1/cv1/act/Mul_output_0: 3d83affc
/model.8/m.0/m/m.1/cv2/conv/Conv_output_0: 3da4d214
/model.8/m.0/m/m.1/cv2/act/Sigmoid_output_0: 3c00f9df
/model.8/m.0/m/m.1/cv2/act/Mul_output_0: 3d85fe75
/model.8/m.0/m/m.1/Add_output_0: 3db75abd
/model.8/m.0/cv2/conv/Conv_output_0: 3d543a75
/model.8/m.0/cv2/act/Sigmoid_output_0: 3c00d442
/model.8/m.0/cv2/act/Mul_output_0: 3d53ef2d
/model.8/m.0/Concat_output_0: 3db75abd
/model.8/m.0/cv3/conv/Conv_output_0: 3d83257f
/model.8/m.0/cv3/act/Sigmoid_output_0: 3c00d29a
/model.8/m.0/cv3/act/Mul_output_0: 3d52c7b4
/model.8/Concat_output_0: 3d83bb10
/model.8/cv2/conv/Conv_output_0: 3d801103
/model.8/cv2/act/Sigmoid_output_0: 3c00b948
/model.8/cv2/act/Mul_output_0: 3d44d206
/model.9/cv1/conv/Conv_output_0: 3d346c0c
/model.9/cv1/act/Sigmoid_output_0: 3c00879f
/model.9/cv1/act/Mul_output_0: 3d33c0e0
/model.9/m/MaxPool_output_0: 3d33c0e0
/model.9/m_1/MaxPool_output_0: 3d33c0e0
/model.9/m_2/MaxPool_output_0: 3d33c0e0
/model.9/Concat_output_0: 3d33c0e0
/model.9/cv2/conv/Conv_output_0: 3d81dfda
/model.9/cv2/act/Sigmoid_output_0: 3bf9526d
/model.9/cv2/act/Mul_output_0: 3cd130eb
/model.10/cv1/conv/Conv_output_0: 3d95ad47
/model.10/cv1/act/Sigmoid_output_0: 3c00d709
/model.10/cv1/act/Mul_output_0: 3d55f827
/model.23/dfl/conv/Conv_output_0: 3dbe88c5
/model.23/dfl/Softmax_output: 3bf6689b
/model.23/Constant_34_output_0_output: 3c010204
ONNXTRT_ShapeShuffle_217_output: 0
/model.23/Concat_6_output_0: 3e4630a1
/model.23/Unsqueeze_12_output_0: 3f204081
/model.10/Split_output_0: 3d55f827
/model.23/Split_output_0: 3d810204
/model.23/cv3.2/cv3.2.1/cv3.2.1.1/act/Mul_output_0: 3e4cfb06
/model.23/cv3.2/cv3.2.1/cv3.2.1.0/act/Mul_output_0: 3d478eea
/model.10/Split_output_1: 3d41eb83
/model.23/Reshape_8_output_0: 3e9f3e7d
ONNXTRT_ShapeShuffle_278_output: 0
/model.23/Expand_1_output_0: 3f204081
ONNXTRT_Broadcast_232_output: 3b810204
ONNXTRT_Broadcast_244_output: 3b810204
/model.23/Concat_15_output_0: 3e9f3e7d
/model.23/Reshape_12_output_0: 3e9f3e7d
/model.23/cv3.2/cv3.2.1/cv3.2.1.1/act/Sigmoid_output_0: 3c010204
/model.23/Split_1_output_1: 3e4630a1
/model.23/Concat_23_output_0: 3e810204
/model.23/Unsqueeze_4_output_0: 3f204081
ONNXTRT_ShapeShuffle_339_output: 0
/model.23/Split_1_output_0: 3e190211
/model.23/Split_output_1: 3e010204
/model.23/Expand_output_0: 3f204081
/model.23/Constant_15_output_0_output: 3c010204
/model.23/Constant_18_output_0_output: 3c010204
/model.10/m/m.0/attn/qkv/conv/Conv_output_0: 3d79a4ce
/model.23/cv3.2/cv3.2.1/cv3.2.1.1/conv/Conv_output_0: 3e4cfb06
/model.23/Unsqueeze_9_output_0: 3e1d3a75
/model.23/dfl/Softmax_output_0: 3bf6689b
/model.23/Transpose_output_0: 3f204081
(Unnamed Layer* 567) [Constant]_output: 0
/model.23/Add_8_output_0: 3e810204
/model.23/Add_2_output_0: 3d810204
/model.10/m/m.0/attn/Reshape_output_0: 3d79a4ce
/model.23/Reshape_5_output_0: 3f204081
/model.23/Expand_4_output_0: 3e1d3a75
ONNXTRT_ShapeShuffle_169_output: 3c010204
/model.23/Constant_46_output_0_output: 0
ONNXTRT_Broadcast_342_output: 3e810204
ONNXTRT_Broadcast_183_output: 3b810204
/model.10/m/m.0/attn/Split_output_0: 3d2a6f75
/model.23/Reshape_4_output_0: 3f204081
/model.23/Add_1_output_0: 3f204081
/model.23/Constant_19_output_0_output: 3b810204
/model.10/m/m.0/attn/Split_output_1: 3d6b5483
/model.23/Range_1_output_0: 3f1f3e7d
/model.23/Add_6_output_0: 3e1d3a75
/model.23/Reshape_14_output_0: 3e1d3a75
/model.10/m/m.0/attn/Split_output_2: 3d79a4ce
/model.10/m/m.0/attn/Transpose_output_0: 3d2a6f75
/model.10/m/m.0/attn/MatMul_output_0: 3f289787
/model.10/m/m.0/attn/Constant_6_output_0_output: 3ab671d7
ONNXTRT_Broadcast_output: 3ab671d7
/model.10/m/m.0/attn/Mul_1_output_0: 3dee6cca
/model.10/m/m.0/attn/Softmax_output: 3b9ff69d
/model.10/m/m.0/attn/Softmax_output_0: 3b9ff69d
ONNXTRT_ShapeShuffle_242_output: 3c010204
/model.23/Sigmoid_output_0: 3bae13c3
/model.10/m/m.0/attn/Transpose_1_output_0: 3b9ff69d
/model.10/m/m.0/attn/MatMul_1_output_0: 3d65b0d3
/model.23/Constant_51_output_0_output: 3b810204
/model.23/Unsqueeze_6_output_0: 3e9f3e7d
/model.23/Concat_10_output_0: 3f204081
/model.23/Add_4_output_0: 3e9f3e7d
/model.23/Range_2_output_0: 3e9d3a75
/model.23/Reshape_16_output_0: 3e1d3a75
/model.23/cv3.2/cv3.2.1/cv3.2.1.0/act/Sigmoid_output_0: 3c00bf22
(Unnamed Layer* 656) [Constant]_output: 0
/model.23/Expand_3_output_0: 3e9f3e7d
/model.23/Constant_48_output_0_output: 3b810204
/model.23/Reshape_2_output_0: 3e3fb101
ONNXTRT_Broadcast_171_output: 3b810204
/model.23/ConstantOfShape_output_0: 0
/model.23/Add_11_output_0: 3fa08ba9
/model.23/Concat_2_output_0: 3e3fb101
/model.23/Expand_2_output_0: 3e9f3e7d
/model.23/Reshape_1_output_0: 3e4630a1
/model.23/Reshape_7_output_0: 3f204081
/model.10/m/m.0/attn/Reshape_1_output_0: 3d65b0d3
/model.10/m/m.0/attn/Reshape_2_output_0: 3d79a4ce
/model.10/m/m.0/attn/pe/conv/Conv_output_0: 3d642d27
/model.10/m/m.0/attn/Add_output_0: 3cb7aea5
/model.10/m/m.0/attn/proj/conv/Conv_output_0: 3cf8f922
/model.10/m/m.0/Add_output_0: 3d403ce9
/model.10/m/m.0/ffn/ffn.0/conv/Conv_output_0: 3d4211f1
/model.10/m/m.0/ffn/ffn.0/act/Sigmoid_output_0: 3bfbc763
/model.10/m/m.0/ffn/ffn.0/act/Mul_output_0: 3ce8c4ed
/model.10/m/m.0/ffn/ffn.1/conv/Conv_output_0: 3d2edec4
/model.10/m/m.0/Add_1_output_0: 3d402226
/model.10/Concat_output_0: 3d55f827
/model.10/cv2/conv/Conv_output_0: 3d717e71
/model.10/cv2/act/Sigmoid_output_0: 3bfe9212
/model.10/cv2/act/Mul_output_0: 3d08eab6
/model.11/Resize_output_0: 3d08eab6
/model.12/Concat_output_0: 3d43ac15
/model.13/cv1/conv/Conv_output_0: 3d46c6df
/model.13/cv1/act/Sigmoid_output_0: 3bf83c14
/model.13/cv1/act/Mul_output_0: 3cc8b168
/model.23/Reshape_13_output_0: 3e1d3a75
/model.23/Constant_67_output_0_output: 3c810204
/model.23/Split_output_2: 3e810204
ONNXTRT_Broadcast_281_output: 3e010204
/model.23/Constant_17_output_0_output: 0
/model.23/Constant_16_output_0_output: 3b810204
/model.13/Split_output_0: 3cc8b168
ONNXTRT_Broadcast_430_output: 3c810204
/model.23/Range_4_output_0: 3e193265
/model.23/Range_output_0: 3f1f3e7d
/model.13/Split_output_1: 3ca1fe16
/model.13/m.0/cv1/conv/Conv_output_0: 3d0b7110
/model.13/m.0/cv1/act/Sigmoid_output_0: 3bfea404
/model.13/m.0/cv1/act/Mul_output_0: 3d099e1d
/model.13/m.0/cv2/conv/Conv_output_0: 3d28b5ef
/model.13/m.0/cv2/act/Sigmoid_output_0: 3c000c76
/model.13/m.0/cv2/act/Mul_output_0: 3d1cab2a
/model.13/m.0/Add_output_0: 3d19cd95
/model.13/Concat_output_0: 3d19cd95
/model.13/cv2/conv/Conv_output_0: 3d41034c
/model.13/cv2/act/Sigmoid_output_0: 3bf9dfa1
/model.13/cv2/act/Mul_output_0: 3cd5e191
/model.14/Resize_output_0: 3cd5e191
/model.15/Concat_output_0: 3d0966f3
/model.16/cv1/conv/Conv_output_0: 3d21cb61
/model.16/cv1/act/Sigmoid_output_0: 3bf37457
/model.16/cv1/act/Mul_output_0: 3cab6dea
/model.23/Mul_5_output_0: 40a08ba9
/model.23/cv3.2/cv3.2.2/Conv_output_0: 3e3fb101
/model.23/cv3.2/cv3.2.0/cv3.2.0.1/act/Sigmoid_output_0: 3c00e803
/model.23/Concat_24_output_0: 3f208ba9
/model.23/Slice_1_output_0: 3dbe88c5
/model.23/cv3.2/cv3.2.1/cv3.2.1.0/conv/Conv_output_0: 3d888d18
/model.16/Split_output_0: 3cab6dea
ONNXTRT_ShapeShuffle_291_output: 3c010204
/model.23/Constant_14_output_0_output: 0
ONNXTRT_Broadcast_437_output: 3e810204
/model.16/Split_output_1: 3c99663c
/model.16/m.0/cv1/conv/Conv_output_0: 3d0d538b
/model.16/m.0/cv1/act/Sigmoid_output_0: 3bfed486
/model.16/m.0/cv1/act/Mul_output_0: 3d0b94db
/model.16/m.0/cv2/conv/Conv_output_0: 3d46d286
/model.16/m.0/cv2/act/Sigmoid_output_0: 3c003131
/model.16/m.0/cv2/act/Mul_output_0: 3d22139c
/model.16/m.0/Add_output_0: 3d27df3e
/model.16/Concat_output_0: 3d27df3e
/model.16/cv2/conv/Conv_output_0: 3d79191e
/model.16/cv2/act/Sigmoid_output_0: 3bffb038
/model.16/cv2/act/Mul_output_0: 3d163073
/model.17/conv/Conv_output_0: 3d2f4b9d
/model.17/act/Sigmoid_output_0: 3bfe19f8
/model.17/act/Mul_output_0: 3d048bd8
/model.18/Concat_output_0: 3d048bd8
/model.19/cv1/conv/Conv_output_0: 3d4e6cba
/model.19/cv1/act/Sigmoid_output_0: 3c00712f
/model.19/cv1/act/Mul_output_0: 3d2e332d
/model.23/Add_output_0: 3f204081
ONNXTRT_Broadcast_305_output: 3b810204
/model.23/Constant_7_output_0_output: 3e810204
/model.23/Reshape_output_0: 3e3ff62e
/model.23/Constant_31_output_0_output: 3c010204
/model.23/Squeeze_2_output_0: 3e810204
/model.19/Split_output_0: 3d2e332d
/model.23/Squeeze_1_output_0: 3e010204
/model.23/Sub_1_output_0: 3e30969d
/model.23/Squeeze_output_0: 3d810204
/model.19/Split_output_1: 3cf2846d
/model.19/m.0/cv1/conv/Conv_output_0: 3d6056f6
/model.19/m.0/cv1/act/Sigmoid_output_0: 3c005067
/model.19/m.0/cv1/act/Mul_output_0: 3d277333
/model.19/m.0/cv2/conv/Conv_output_0: 3d85f76b
/model.19/m.0/cv2/act/Sigmoid_output_0: 3c00f446
/model.19/m.0/cv2/act/Mul_output_0: 3d7af2d7
/model.19/m.0/Add_output_0: 3d8272af
/model.19/Concat_output_0: 3d8272af
/model.19/cv2/conv/Conv_output_0: 3d99ad22
/model.19/cv2/act/Sigmoid_output_0: 3c00cbb0
/model.19/cv2/act/Mul_output_0: 3d4e5762
/model.20/conv/Conv_output_0: 3d7ff477
/model.20/act/Sigmoid_output_0: 3bfec6e8
/model.20/act/Mul_output_0: 3d0b04e1
/model.21/Concat_output_0: 3d0b04e1
/model.22/cv1/conv/Conv_output_0: 3d4a8169
/model.22/cv1/act/Sigmoid_output_0: 3c00abaf
/model.22/cv1/act/Mul_output_0: 3d3f35c8
/model.23/ConstantOfShape_1_output_0: 0
/model.23/Reshape_15_output_0: 3e1d3a75
/model.23/dfl/Reshape_1_output_0: 3dbe88c5
/model.23/Reshape_17_output_0: 3e1d3a75
/model.23/Range_5_output_0: 3e193265
/model.23/Concat_22_output_0: 3f204081
/model.22/Split_output_0: 3d16a753
output0: 40a08ba9
/model.23/ConstantOfShape_2_output_0: 0
/model.23/Constant_32_output_0_output: 3b810204
/model.22/Split_output_1: 3d3f35c8
/model.22/m.0/cv1/conv/Conv_output_0: 3ce92b1e
/model.22/m.0/cv1/act/Sigmoid_output_0: 3bc86dcc
/model.22/m.0/cv1/act/Mul_output_0: 3bf9f77b
/model.22/m.0/m/m.0/cv1/conv/Conv_output_0: 3d330189
/model.22/m.0/m/m.0/cv1/act/Sigmoid_output_0: 3bfd4949
/model.22/m.0/m/m.0/cv1/act/Mul_output_0: 3cfc1048
/model.22/m.0/m/m.0/cv2/conv/Conv_output_0: 3d2ce5ec
/model.22/m.0/m/m.0/cv2/act/Sigmoid_output_0: 3bffaa1c
/model.22/m.0/m/m.0/cv2/act/Mul_output_0: 3d15d89d
/model.22/m.0/m/m.0/Add_output_0: 3d21f82b
/model.22/m.0/m/m.1/cv1/conv/Conv_output_0: 3d68d120
/model.22/m.0/m/m.1/cv1/act/Sigmoid_output_0: 3bfd1fd0
/model.22/m.0/m/m.1/cv1/act/Mul_output_0: 3cf9b9fe
/model.22/m.0/m/m.1/cv2/conv/Conv_output_0: 3dc72972
/model.22/m.0/m/m.1/cv2/act/Sigmoid_output_0: 3c0101e0
/model.22/m.0/m/m.1/cv2/act/Mul_output_0: 3dc72939
/model.22/m.0/m/m.1/Add_output_0: 3dbfddee
/model.22/m.0/cv2/conv/Conv_output_0: 3d2fa9ac
/model.22/m.0/cv2/act/Sigmoid_output_0: 3c007443
/model.22/m.0/cv2/act/Mul_output_0: 3d2ee8a7
/model.22/m.0/Concat_output_0: 3dbfddee
/model.22/m.0/cv3/conv/Conv_output_0: 3da72939
/model.22/m.0/cv3/act/Sigmoid_output_0: 3c00f987
/model.22/m.0/cv3/act/Mul_output_0: 3d8553a6
/model.22/Concat_output_0: 3d8553a6
/model.22/cv2/conv/Conv_output_0: 3dd8a89b
/model.22/cv2/act/Sigmoid_output_0: 3c00d9ee
/model.22/cv2/act/Mul_output_0: 3d583cf2
/model.23/cv2.0/cv2.0.0/conv/Conv_output_0: 3db1dda6
/model.23/cv2.0/cv2.0.0/act/Sigmoid_output_0: 3bfff314
/model.23/cv2.0/cv2.0.0/act/Mul_output_0: 3d1a3023
/model.23/cv2.0/cv2.0.1/conv/Conv_output_0: 3e871600
/model.23/cv2.0/cv2.0.1/act/Sigmoid_output_0: 3c010204
/model.23/cv2.0/cv2.0.1/act/Mul_output_0: 3e871600
/model.23/cv2.0/cv2.0.2/Conv_output_0: 3e190211
/model.23/cv3.0/cv3.0.0/cv3.0.0.0/conv/Conv_output_0: 3d726423
/model.23/cv3.0/cv3.0.0/cv3.0.0.0/act/Sigmoid_output_0: 3c00748d
/model.23/cv3.0/cv3.0.0/cv3.0.0.0/act/Mul_output_0: 3d2ef9fe
/model.23/cv3.0/cv3.0.0/cv3.0.0.1/conv/Conv_output_0: 3d93dafd
/model.23/cv3.0/cv3.0.0/cv3.0.0.1/act/Sigmoid_output_0: 3c00fe90
/model.23/cv3.0/cv3.0.0/cv3.0.0.1/act/Mul_output_0: 3d93d708
/model.23/cv3.0/cv3.0.1/cv3.0.1.0/conv/Conv_output_0: 3d8ed795
/model.23/cv3.0/cv3.0.1/cv3.0.1.0/act/Sigmoid_output_0: 3c0098b4
/model.23/cv3.0/cv3.0.1/cv3.0.1.0/act/Mul_output_0: 3d38b275
/model.23/cv3.0/cv3.0.1/cv3.0.1.1/conv/Conv_output_0: 3e98d4ea
/model.23/cv3.0/cv3.0.1/cv3.0.1.1/act/Sigmoid_output_0: 3c010204
/model.23/cv3.0/cv3.0.1/cv3.0.1.1/act/Mul_output_0: 3e47fbe4
/model.23/cv3.0/cv3.0.2/Conv_output_0: 3e3ff62e
/model.23/Concat_output_0: 3e3ff62e
/model.23/cv2.1/cv2.1.0/conv/Conv_output_0: 3df93061
/model.23/cv2.1/cv2.1.0/act/Sigmoid_output_0: 3c00e9ec
/model.23/cv2.1/cv2.1.0/act/Mul_output_0: 3d68c391
/model.23/cv2.1/cv2.1.1/conv/Conv_output_0: 3e21d1d5
/model.23/cv2.1/cv2.1.1/act/Sigmoid_output_0: 3c010204
/model.23/cv2.1/cv2.1.1/act/Mul_output_0: 3e21d1d5
/model.23/cv2.1/cv2.1.2/Conv_output_0: 3de42296
/model.23/cv3.1/cv3.1.0/cv3.1.0.0/conv/Conv_output_0: 3daeb797
/model.23/cv3.1/cv3.1.0/cv3.1.0.0/act/Sigmoid_output_0: 3c00fb37
/model.23/cv3.1/cv3.1.0/cv3.1.0.0/act/Mul_output_0: 3d88d64d
/model.23/cv3.1/cv3.1.0/cv3.1.0.1/conv/Conv_output_0: 3d618be8
/model.23/cv3.1/cv3.1.0/cv3.1.0.1/act/Sigmoid_output_0: 3c00dbd9
/model.23/cv3.1/cv3.1.0/cv3.1.0.1/act/Mul_output_0: 3d59d487
/model.23/cv3.1/cv3.1.1/cv3.1.1.0/conv/Conv_output_0: 3d80803d
/model.23/cv3.1/cv3.1.1/cv3.1.1.0/act/Sigmoid_output_0: 3c00f696
/model.23/cv3.1/cv3.1.1/cv3.1.1.0/act/Mul_output_0: 3d8074db
/model.23/cv3.1/cv3.1.1/cv3.1.1.1/conv/Conv_output_0: 3eb1e1c8
/model.23/cv3.1/cv3.1.1/cv3.1.1.1/act/Sigmoid_output_0: 3c010204
/model.23/cv3.1/cv3.1.1/cv3.1.1.1/act/Mul_output_0: 3e7f3954
/model.23/cv3.1/cv3.1.2/Conv_output_0: 3e4630a1
/model.23/Concat_1_output_0: 3e4630a1
/model.23/cv2.2/cv2.2.0/conv/Conv_output_0: 3d73866f
/model.23/cv2.2/cv2.2.0/act/Sigmoid_output_0: 3c00e060
/model.23/cv2.2/cv2.2.0/act/Mul_output_0: 3d5deed9
/model.23/cv2.2/cv2.2.1/conv/Conv_output_0: 3e0f63cf
/model.23/cv2.2/cv2.2.1/act/Sigmoid_output_0: 3c010204
/model.23/cv2.2/cv2.2.1/act/Mul_output_0: 3e0f63cf
/model.23/cv2.2/cv2.2.2/Conv_output_0: 3dacacce
/model.23/cv3.2/cv3.2.0/cv3.2.0.0/conv/Conv_output_0: 3db8298d
/model.23/cv3.2/cv3.2.0/cv3.2.0.0/act/Sigmoid_output_0: 3c0101a7
